{
  "version": "1.0",
  "truncation": null,
  "padding": null,
  "added_tokens": [
    {
      "id": 0,
      "content": "<pad>",
      "single_word": false,
      "lstrip": false,
      "rstrip": false,
      "normalized": false,
      "special": true
    },
    {
      "id": 1,
      "content": "<sos>",
      "single_word": false,
      "lstrip": false,
      "rstrip": false,
      "normalized": false,
      "special": true
    },
    {
      "id": 2,
      "content": "<eos>",
      "single_word": false,
      "lstrip": false,
      "rstrip": false,
      "normalized": false,
      "special": true
    },
    {
      "id": 3,
      "content": "<unk>",
      "single_word": false,
      "lstrip": false,
      "rstrip": false,
      "normalized": false,
      "special": true
    }
  ],
  "normalizer": null,
  "pre_tokenizer": {
    "type": "Whitespace"
  },
  "post_processor": null,
  "decoder": null,
  "model": {
    "type": "BPE",
    "dropout": null,
    "unk_token": "<unk>",
    "continuing_subword_prefix": null,
    "end_of_word_suffix": null,
    "fuse_unk": false,
    "byte_fallback": false,
    "ignore_merges": false,
    "vocab": {
      "<pad>": 0,
      "<sos>": 1,
      "<eos>": 2,
      "<unk>": 3,
      "!": 4,
      "\"": 5,
      "$": 6,
      "'": 7,
      "(": 8,
      ")": 9,
      ",": 10,
      "-": 11,
      ".": 12,
      "/": 13,
      "0": 14,
      "1": 15,
      "2": 16,
      "3": 17,
      "4": 18,
      "5": 19,
      "6": 20,
      "8": 21,
      "9": 22,
      ":": 23,
      ";": 24,
      "=": 25,
      "?": 26,
      "A": 27,
      "B": 28,
      "C": 29,
      "D": 30,
      "E": 31,
      "F": 32,
      "G": 33,
      "H": 34,
      "I": 35,
      "J": 36,
      "K": 37,
      "L": 38,
      "M": 39,
      "N": 40,
      "O": 41,
      "P": 42,
      "Q": 43,
      "R": 44,
      "S": 45,
      "T": 46,
      "U": 47,
      "V": 48,
      "W": 49,
      "Y": 50,
      "Z": 51,
      "a": 52,
      "b": 53,
      "c": 54,
      "d": 55,
      "e": 56,
      "f": 57,
      "g": 58,
      "h": 59,
      "i": 60,
      "j": 61,
      "k": 62,
      "l": 63,
      "m": 64,
      "n": 65,
      "o": 66,
      "p": 67,
      "q": 68,
      "r": 69,
      "s": 70,
      "t": 71,
      "u": 72,
      "v": 73,
      "w": 74,
      "x": 75,
      "y": 76,
      "z": 77,
      "©": 78,
      "Ç": 79,
      "à": 80,
      "á": 81,
      "â": 82,
      "ç": 83,
      "è": 84,
      "é": 85,
      "ê": 86,
      "í": 87,
      "î": 88,
      "ï": 89,
      "ó": 90,
      "ô": 91,
      "ù": 92,
      "ú": 93,
      "û": 94,
      "œ": 95,
      "’": 96,
      "na": 97,
      "ko": 98,
      "ng": 99,
      "la": 100,
      "es": 101,
      "ma": 102,
      "en": 103,
      "te": 104,
      "ai": 105,
      "le": 106,
      "on": 107,
      "li": 108,
      "ba": 109,
      "de": 110,
      "ka": 111,
      "ou": 112,
      "ya": 113,
      "pa": 114,
      "mo": 115,
      "za": 116,
      "re": 117,
      "is": 118,
      "bo": 119,
      "lo": 120,
      "er": 121,
      "ta": 122,
      "qu": 123,
      "ne": 124,
      "yo": 125,
      "to": 126,
      "ki": 127,
      "an": 128,
      "tu": 129,
      "me": 130,
      "pas": 131,
      "ti": 132,
      "so": 133,
      "bi": 134,
      "si": 135,
      "ch": 136,
      "be": 137,
      "ent": 138,
      "wa": 139,
      "mi": 140,
      "est": 141,
      "our": 142,
      "ngai": 143,
      "ni": 144,
      "au": 145,
      "nga": 146,
      "su": 147,
      "po": 148,
      "se": 149,
      "sa": 150,
      "ye": 151,
      "om": 152,
      "pe": 153,
      "que": 154,
      "ngo": 155,
      "lle": 156,
      "oi": 157,
      "un": 158,
      "tr": 159,
      "ce": 160,
      "nd": 161,
      "ve": 162,
      "mba": 163,
      "zali": 164,
      "mbo": 165,
      "pr": 166,
      "ngi": 167,
      "ui": 168,
      "ais": 169,
      "mu": 170,
      "les": 171,
      "mon": 172,
      "Je": 173,
      "zo": 174,
      "ment": 175,
      "ar": 176,
      "ur": 177,
      "as": 178,
      "il": 179,
      "yi": 180,
      "ku": 181,
      "ri": 182,
      "je": 183,
      "ke": 184,
      "moko": 185,
      "in": 186,
      "Il": 187,
      "che": 188,
      "pour": 189,
      "nda": 190,
      "com": 191,
      "une": 192,
      "du": 193,
      "ous": 194,
      "mwa": 195,
      "par": 196,
      "lu": 197,
      "son": 198,
      "ans": 199,
      "oyo": 200,
      "ter": 201,
      "et": 202,
      "pi": 203,
      "des": 204,
      "ant": 205,
      "vi": 206,
      "bu": 207,
      "ezali": 208,
      "or": 209,
      "no": 210,
      "bis": 211,
      "cou": 212,
      "ère": 213,
      "zala": 214,
      "dans": 215,
      "nge": 216,
      "loko": 217,
      "di": 218,
      "ait": 219,
      "mala": 220,
      "ci": 221,
      "ze": 222,
      "nde": 223,
      "..": 224,
      "Tu": 225,
      "end": 226,
      "ver": 227,
      "mais": 228,
      "ave": 229,
      "mama": 230,
      "pona": 231,
      "ça": 232,
      "jour": 233,
      "moi": 234,
      "enf": 235,
      "nini": 236,
      "ux": 237,
      "vais": 238,
      "comme": 239,
      "mbe": 240,
      "co": 241,
      "enfant": 242,
      "té": 243,
      "avec": 244,
      "ain": 245,
      "maka": 246,
      "sala": 247,
      "va": 248,
      "voi": 249,
      "Na": 250,
      "Le": 251,
      "mes": 252,
      "tre": 253,
      "bien": 254,
      "malamu": 255,
      "gr": 256,
      "toi": 257,
      "eu": 258,
      "oko": 259,
      "tra": 260,
      "Ne": 261,
      "tes": 262,
      "coup": 263,
      "fu": 264,
      "mwasi": 265,
      "qui": 266,
      "mb": 267,
      "linga": 268,
      "fi": 269,
      "vo": 270,
      "ca": 271,
      "ue": 272,
      "suis": 273,
      "isa": 274,
      "eza": 275,
      "con": 276,
      "maison": 277,
      "lé": 278,
      "beau": 279,
      "ende": 280,
      "pes": 281,
      "kolo": 282,
      "tte": 283,
      "toko": 284,
      "bon": 285,
      "ra": 286,
      "ser": 287,
      "da": 288,
      "tion": 289,
      "ro": 290,
      "kende": 291,
      "moto": 292,
      "isi": 293,
      "mingi": 294,
      "eur": 295,
      "nako": 296,
      "ako": 297,
      "ton": 298,
      "wana": 299,
      "cher": 300,
      "beaucoup": 301,
      "fai": 302,
      "ré": 303,
      "nous": 304,
      "quoi": 305,
      "Elle": 306,
      "fa": 307,
      "pro": 308,
      "ens": 309,
      "mwana": 310,
      "bali": 311,
      "mpe": 312,
      "per": 313,
      "naza": 314,
      "là": 315,
      "sont": 316,
      "ex": 317,
      "ès": 318,
      "biso": 319,
      "train": 320,
      "nazo": 321,
      "ge": 322,
      "susu": 323,
      "ête": 324,
      "dé": 325,
      "kota": 326,
      "ici": 327,
      "lit": 328,
      "solo": 329,
      "por": 330,
      "lement": 331,
      "hui": 332,
      "gar": 333,
      "lingi": 334,
      "...": 335,
      "gran": 336,
      "fe": 337,
      "rai": 338,
      "libo": 339,
      "soki": 340,
      "res": 341,
      "Si": 342,
      "La": 343,
      "bala": 344,
      "On": 345,
      "hom": 346,
      "ture": 347,
      "awa": 348,
      "kaka": 349,
      "mar": 350,
      "mme": 351,
      "tou": 352,
      "biloko": 353,
      "oza": 354,
      "nze": 355,
      "Ma": 356,
      "lamba": 357,
      "voir": 358,
      "pesa": 359,
      "ngu": 360,
      "sion": 361,
      "eko": 362,
      "lelo": 363,
      "it": 364,
      "at": 365,
      "pres": 366,
      "ché": 367,
      "uire": 368,
      "jourd": 369,
      "makasi": 370,
      "os": 371,
      "yango": 372,
      "pu": 373,
      "nz": 374,
      "ts": 375,
      "ét": 376,
      "fait": 377,
      "duire": 378,
      "ndako": 379,
      "don": 380,
      "mela": 381,
      "ebo": 382,
      "mbongo": 383,
      "ha": 384,
      "sor": 385,
      "expres": 386,
      "expression": 387,
      "Pro": 388,
      "papa": 389,
      "us": 390,
      "nan": 391,
      "boye": 392,
      "alement": 393,
      "teralement": 394,
      "verbe": 395,
      "traduire": 396,
      "litteralement": 397,
      "Proverbe": 398,
      "for": 399,
      "lè": 400,
      "ven": 401,
      "mona": 402,
      "mang": 403,
      "zalaki": 404,
      "yoka": 405,
      "Di": 406,
      "motu": 407,
      "mé": 408,
      "main": 409,
      "mbi": 410,
      "kola": 411,
      "ene": 412,
      "femme": 413,
      "men": 414,
      "elle": 415,
      "gent": 416,
      "aza": 417,
      "lia": 418,
      "mobali": 419,
      "ndo": 420,
      "argent": 421,
      "mokolo": 422,
      "moyi": 423,
      "Dieu": 424,
      "né": 425,
      "vrai": 426,
      "bele": 427,
      "av": 428,
      "mari": 429,
      "très": 430,
      "zalaka": 431,
      "cette": 432,
      "ir": 433,
      "quel": 434,
      "tika": 435,
      "faire": 436,
      "kitoko": 437,
      "veux": 438,
      "mutu": 439,
      "enfants": 440,
      "lika": 441,
      "bana": 442,
      "ons": 443,
      "am": 444,
      "ache": 445,
      "fr": 446,
      "garde": 447,
      "vie": 448,
      "sur": 449,
      "sé": 450,
      "entre": 451,
      "suka": 452,
      "maman": 453,
      "we": 454,
      "ont": 455,
      "san": 456,
      "Mon": 457,
      "zambe": 458,
      "tata": 459,
      "ika": 460,
      "banda": 461,
      "ments": 462,
      "ême": 463,
      "pré": 464,
      "lui": 465,
      "aime": 466,
      "boko": 467,
      "ois": 468,
      "ps": 469,
      "vous": 470,
      "yeba": 471,
      "bale": 472,
      "Les": 473,
      "bou": 474,
      "plu": 475,
      "parce": 476,
      "00": 477,
      "Pour": 478,
      "mor": 479,
      "peti": 480,
      "af": 481,
      "ata": 482,
      "kati": 483,
      "aujourd": 484,
      "al": 485,
      "beta": 486,
      ").": 487,
      "mbu": 488,
      "nom": 489,
      "lan": 490,
      "batu": 491,
      "ebongi": 492,
      "aus": 493,
      "kela": 494,
      "min": 495,
      "plus": 496,
      "zu": 497,
      "mbola": 498,
      "cu": 499,
      "tomb": 500,
      "tir": 501,
      "soeur": 502,
      "ble": 503,
      "bino": 504,
      "aut": 505,
      "monde": 506,
      "enco": 507,
      "uit": 508,
      "monene": 509,
      "encore": 510,
      "azali": 511,
      "ten": 512,
      "kombo": 513,
      "marché": 514,
      "ele": 515,
      "même": 516,
      "man": 517,
      "kosala": 518,
      "eau": 519,
      "oso": 520,
      "Ce": 521,
      "pen": 522,
      "vas": 523,
      "ndenge": 524,
      "der": 525,
      "koko": 526,
      "liboso": 527,
      "mayi": 528,
      "moni": 529,
      "lobi": 530,
      "habi": 531,
      "aussi": 532,
      "fais": 533,
      "ses": 534,
      "vai": 535,
      "kole": 536,
      "lingaka": 537,
      "lokola": 538,
      "person": 539,
      "Pourquoi": 540,
      "Nzambe": 541,
      "aba": 542,
      "epa": 543,
      "epayi": 544,
      "mère": 545,
      "homme": 546,
      "nta": 547,
      "tela": 548,
      "leur": 549,
      "kuta": 550,
      "boni": 551,
      "porte": 552,
      "mis": 553,
      "nzo": 554,
      "chez": 555,
      "Mo": 556,
      "faut": 557,
      "nzela": 558,
      "père": 559,
      "vre": 560,
      "Que": 561,
      "ner": 562,
      "lisusu": 563,
      "mosusu": 564,
      "grand": 565,
      "pon": 566,
      "tout": 567,
      "jus": 568,
      "kasi": 569,
      "kobo": 570,
      "pamba": 571,
      "ndaku": 572,
      "ami": 573,
      "blè": 574,
      "où": 575,
      "lais": 576,
      "bima": 577,
      "asse": 578,
      "bisa": 579,
      "problè": 580,
      "Ta": 581,
      "jo": 582,
      "tombé": 583,
      "vête": 584,
      "nani": 585,
      "arri": 586,
      "voiture": 587,
      "ap": 588,
      "azo": 589,
      "ga": 590,
      "roi": 591,
      "anda": 592,
      "bilamba": 593,
      "manger": 594,
      "vraiment": 595,
      "Cet": 596,
      "Sa": 597,
      "regarde": 598,
      "nioso": 599,
      "kelasi": 600,
      "dis": 601,
      "koka": 602,
      "mabe": 603,
      "mibale": 604,
      "mbala": 605,
      "travai": 606,
      "penza": 607,
      "vêtements": 608,
      "bango": 609,
      "ces": 610,
      "kanda": 611,
      "rer": 612,
      "ques": 613,
      "ndeko": 614,
      "kisi": 615,
      "oki": 616,
      "som": 617,
      "Ba": 618,
      "bat": 619,
      "mort": 620,
      "Com": 621,
      "dent": 622,
      "dor": 623,
      "futa": 624,
      "ille": 625,
      "nes": 626,
      "pé": 627,
      "lie": 628,
      "prend": 629,
      "nzi": 630,
      "moninga": 631,
      "mpo": 632,
      "ph": 633,
      "nalingi": 634,
      "tema": 635,
      "bani": 636,
      "pasi": 637,
      "Nous": 638,
      "eloko": 639,
      "kwe": 640,
      "mer": 641,
      "nour": 642,
      "tala": 643,
      "tin": 644,
      "somba": 645,
      "bisi": 646,
      "nanu": 647,
      "nourri": 648,
      "bas": 649,
      "loba": 650,
      "bela": 651,
      "kotala": 652,
      "grande": 653,
      "ig": 654,
      "fille": 655,
      "cor": 656,
      "ut": 657,
      "koya": 658,
      "mal": 659,
      "dica": 660,
      "amour": 661,
      "ozali": 662,
      "belle": 663,
      "dit": 664,
      "lingala": 665,
      "nourriture": 666,
      "likolo": 667,
      "commen": 668,
      "cho": 669,
      "était": 670,
      "tention": 671,
      "sommes": 672,
      "gens": 673,
      "ire": 674,
      "parle": 675,
      "quelqu": 676,
      "esika": 677,
      "mau": 678,
      "Soki": 679,
      "pou": 680,
      "koba": 681,
      "mboka": 682,
      "bato": 683,
      "deux": 684,
      "soit": 685,
      "pita": 686,
      "mbwa": 687,
      "sortir": 688,
      "ebele": 689,
      "parti": 690,
      "donne": 691,
      "boli": 692,
      "tozali": 693,
      "posa": 694,
      "misa": 695,
      "sou": 696,
      "petit": 697,
      "nzoto": 698,
      "fami": 699,
      "Li": 700,
      "Moi": 701,
      "do": 702,
      "pai": 703,
      "mange": 704,
      "luka": 705,
      "venu": 706,
      "likambo": 707,
      "personne": 708,
      "Qu": 709,
      "nza": 710,
      "wi": 711,
      "écou": 712,
      "motema": 713,
      "roit": 714,
      "yebi": 715,
      "kufa": 716,
      "nant": 717,
      "fois": 718,
      "komela": 719,
      "teur": 720,
      "sika": 721,
      "chi": 722,
      "motuka": 723,
      "Es": 724,
      "blan": 725,
      "isson": 726,
      "makambo": 727,
      "hombo": 728,
      "corps": 729,
      "famille": 730,
      "age": 731,
      "ins": 732,
      "comment": 733,
      "problème": 734,
      "liki": 735,
      "wapi": 736,
      "pili": 737,
      "acheter": 738,
      "zua": 739,
      "Dans": 740,
      "mbote": 741,
      "rien": 742,
      "êt": 743,
      "près": 744,
      "zemi": 745,
      "mauvais": 746,
      "Toi": 747,
      "chos": 748,
      "autre": 749,
      "pars": 750,
      "choses": 751,
      "ier": 752,
      "ris": 753,
      "tenant": 754,
      "leki": 755,
      "lili": 756,
      "ouve": 757,
      "keyi": 758,
      "viens": 759,
      "médica": 760,
      "avait": 761,
      "lema": 762,
      "gros": 763,
      "tshombo": 764,
      "ID": 765,
      "koyo": 766,
      "leu": 767,
      "coeur": 768,
      "attention": 769,
      "après": 770,
      "monoko": 771,
      "ils": 772,
      "zela": 773,
      "faires": 774,
      "affaires": 775,
      "travail": 776,
      "ana": 777,
      "kisa": 778,
      "noi": 779,
      "zwa": 780,
      "mai": 781,
      "ance": 782,
      "sali": 783,
      "kele": 784,
      "conna": 785,
      "nzete": 786,
      "Comment": 787,
      "chose": 788,
      "Ton": 789,
      "ac": 790,
      "kolia": 791,
      "tem": 792,
      "onc": 793,
      "chè": 794,
      "peux": 795,
      "cas": 796,
      "zi": 797,
      "lang": 798,
      "télé": 799,
      "pesi": 800,
      "derni": 801,
      "cau": 802,
      "eta": 803,
      "ezo": 804,
      "wen": 805,
      "koyoka": 806,
      "kobeta": 807,
      "ence": 808,
      "tango": 809,
      "sima": 810,
      "wenze": 811,
      "Djo": 812,
      "br": 813,
      "onso": 814,
      "mobi": 815,
      "sus": 816,
      "seu": 817,
      "mobimba": 818,
      "Fais": 819,
      "bre": 820,
      "ff": 821,
      "uti": 822,
      "makolo": 823,
      "bongo": 824,
      "ani": 825,
      "sikoyo": 826,
      "suc": 827,
      "sanga": 828,
      "ller": 829,
      "unda": 830,
      "mbaka": 831,
      "maladi": 832,
      "endroit": 833,
      "étais": 834,
      "moyibi": 835,
      "yebaki": 836,
      "juste": 837,
      "aka": 838,
      "azalaka": 839,
      "olingi": 840,
      "telema": 841,
      "kei": 842,
      "puis": 843,
      "fort": 844,
      "Au": 845,
      "ongo": 846,
      "sent": 847,
      "ngisa": 848,
      "mande": 849,
      "tan": 850,
      "met": 851,
      "uil": 852,
      "kuna": 853,
      "ors": 854,
      "rap": 855,
      "cé": 856,
      "ds": 857,
      "bolingo": 858,
      "Jé": 859,
      "Un": 860,
      "rs": 861,
      "sais": 862,
      "autr": 863,
      "illes": 864,
      "Ils": 865,
      "vient": 866,
      "forêt": 867,
      "sukali": 868,
      "bokono": 869,
      "Cette": 870,
      "ela": 871,
      "ny": 872,
      "kanga": 873,
      "and": 874,
      "inte": 875,
      "notre": 876,
      "voleur": 877,
      "mbula": 878,
      "nyonso": 879,
      "fanda": 880,
      "pain": 881,
      "enti": 882,
      "liwa": 883,
      "bazali": 884,
      "cet": 885,
      "mariage": 886,
      "bouche": 887,
      "kweyi": 888,
      "frap": 889,
      "mbisi": 890,
      "rais": 891,
      "koki": 892,
      "layi": 893,
      "peur": 894,
      "gu": 895,
      "vent": 896,
      "esu": 897,
      "maki": 898,
      "moki": 899,
      "ret": 900,
      "aux": 901,
      "nganga": 902,
      "libota": 903,
      "SID": 904,
      "fo": 905,
      "nouve": 906,
      "pre": 907,
      "nazali": 908,
      "mafuta": 909,
      "zonga": 910,
      "nazokende": 911,
      "SIDA": 912,
      "tend": 913,
      "nalingaka": 914,
      "mabele": 915,
      "masanga": 916,
      "pay": 917,
      "mino": 918,
      "maintenant": 919,
      "cause": 920,
      "gue": 921,
      "ode": 922,
      "kosa": 923,
      "ngom": 924,
      "mosala": 925,
      "zamba": 926,
      "chan": 927,
      "mia": 928,
      "écoute": 929,
      "temps": 930,
      "ja": 931,
      "ngisi": 932,
      "libala": 933,
      "mobe": 934,
      "ari": 935,
      "répon": 936,
      "koleka": 937,
      "Jésus": 938,
      "kwa": 939,
      "laki": 940,
      "ndu": 941,
      "vers": 942,
      "jours": 943,
      "frère": 944,
      "arrive": 945,
      "baninga": 946,
      "Bo": 947,
      "ozalaki": 948,
      "kotu": 949,
      "ler": 950,
      "yaka": 951,
      "pango": 952,
      "zando": 953,
      "boti": 954,
      "arr": 955,
      "chemin": 956,
      "euf": 957,
      "vois": 958,
      "parcelle": 959,
      "Salu": 960,
      "prendre": 961,
      "Aujourd": 962,
      "Ch": 963,
      "liya": 964,
      "lisa": 965,
      "acheté": 966,
      "Ko": 967,
      "aller": 968,
      "cer": 969,
      "dou": 970,
      "non": 971,
      "éco": 972,
      "kopesa": 973,
      "lait": 974,
      "demande": 975,
      "bomoyi": 976,
      "keba": 977,
      "chercher": 978,
      "eleki": 979,
      "école": 980,
      "De": 981,
      "étu": 982,
      "lar": 983,
      "boire": 984,
      "pela": 985,
      "pie": 986,
      "dents": 987,
      "sucré": 988,
      "maladie": 989,
      "Va": 990,
      "kosu": 991,
      "envie": 992,
      "oub": 993,
      "ches": 994,
      "attend": 995,
      "mettre": 996,
      "500": 997,
      "ezalaka": 998,
      "ot": 999
    },
    "merges": [
      [
        "n",
        "a"
      ],
      [
        "k",
        "o"
      ],
      [
        "n",
        "g"
      ],
      [
        "l",
        "a"
      ],
      [
        "e",
        "s"
      ],
      [
        "m",
        "a"
      ],
      [
        "e",
        "n"
      ],
      [
        "t",
        "e"
      ],
      [
        "a",
        "i"
      ],
      [
        "l",
        "e"
      ],
      [
        "o",
        "n"
      ],
      [
        "l",
        "i"
      ],
      [
        "b",
        "a"
      ],
      [
        "d",
        "e"
      ],
      [
        "k",
        "a"
      ],
      [
        "o",
        "u"
      ],
      [
        "y",
        "a"
      ],
      [
        "p",
        "a"
      ],
      [
        "m",
        "o"
      ],
      [
        "z",
        "a"
      ],
      [
        "r",
        "e"
      ],
      [
        "i",
        "s"
      ],
      [
        "b",
        "o"
      ],
      [
        "l",
        "o"
      ],
      [
        "e",
        "r"
      ],
      [
        "t",
        "a"
      ],
      [
        "q",
        "u"
      ],
      [
        "n",
        "e"
      ],
      [
        "y",
        "o"
      ],
      [
        "t",
        "o"
      ],
      [
        "k",
        "i"
      ],
      [
        "a",
        "n"
      ],
      [
        "t",
        "u"
      ],
      [
        "m",
        "e"
      ],
      [
        "pa",
        "s"
      ],
      [
        "t",
        "i"
      ],
      [
        "s",
        "o"
      ],
      [
        "b",
        "i"
      ],
      [
        "s",
        "i"
      ],
      [
        "c",
        "h"
      ],
      [
        "b",
        "e"
      ],
      [
        "en",
        "t"
      ],
      [
        "w",
        "a"
      ],
      [
        "m",
        "i"
      ],
      [
        "es",
        "t"
      ],
      [
        "ou",
        "r"
      ],
      [
        "ng",
        "ai"
      ],
      [
        "n",
        "i"
      ],
      [
        "a",
        "u"
      ],
      [
        "ng",
        "a"
      ],
      [
        "s",
        "u"
      ],
      [
        "p",
        "o"
      ],
      [
        "s",
        "e"
      ],
      [
        "s",
        "a"
      ],
      [
        "y",
        "e"
      ],
      [
        "o",
        "m"
      ],
      [
        "p",
        "e"
      ],
      [
        "qu",
        "e"
      ],
      [
        "ng",
        "o"
      ],
      [
        "l",
        "le"
      ],
      [
        "o",
        "i"
      ],
      [
        "u",
        "n"
      ],
      [
        "t",
        "r"
      ],
      [
        "c",
        "e"
      ],
      [
        "n",
        "d"
      ],
      [
        "v",
        "e"
      ],
      [
        "m",
        "ba"
      ],
      [
        "za",
        "li"
      ],
      [
        "m",
        "bo"
      ],
      [
        "p",
        "r"
      ],
      [
        "ng",
        "i"
      ],
      [
        "u",
        "i"
      ],
      [
        "ai",
        "s"
      ],
      [
        "m",
        "u"
      ],
      [
        "l",
        "es"
      ],
      [
        "m",
        "on"
      ],
      [
        "J",
        "e"
      ],
      [
        "z",
        "o"
      ],
      [
        "m",
        "ent"
      ],
      [
        "a",
        "r"
      ],
      [
        "u",
        "r"
      ],
      [
        "a",
        "s"
      ],
      [
        "i",
        "l"
      ],
      [
        "y",
        "i"
      ],
      [
        "k",
        "u"
      ],
      [
        "r",
        "i"
      ],
      [
        "j",
        "e"
      ],
      [
        "k",
        "e"
      ],
      [
        "mo",
        "ko"
      ],
      [
        "i",
        "n"
      ],
      [
        "I",
        "l"
      ],
      [
        "ch",
        "e"
      ],
      [
        "p",
        "our"
      ],
      [
        "nd",
        "a"
      ],
      [
        "c",
        "om"
      ],
      [
        "u",
        "ne"
      ],
      [
        "d",
        "u"
      ],
      [
        "ou",
        "s"
      ],
      [
        "m",
        "wa"
      ],
      [
        "pa",
        "r"
      ],
      [
        "l",
        "u"
      ],
      [
        "s",
        "on"
      ],
      [
        "an",
        "s"
      ],
      [
        "o",
        "yo"
      ],
      [
        "te",
        "r"
      ],
      [
        "e",
        "t"
      ],
      [
        "p",
        "i"
      ],
      [
        "d",
        "es"
      ],
      [
        "an",
        "t"
      ],
      [
        "v",
        "i"
      ],
      [
        "b",
        "u"
      ],
      [
        "e",
        "zali"
      ],
      [
        "o",
        "r"
      ],
      [
        "n",
        "o"
      ],
      [
        "b",
        "is"
      ],
      [
        "c",
        "ou"
      ],
      [
        "è",
        "re"
      ],
      [
        "za",
        "la"
      ],
      [
        "d",
        "ans"
      ],
      [
        "ng",
        "e"
      ],
      [
        "lo",
        "ko"
      ],
      [
        "d",
        "i"
      ],
      [
        "ai",
        "t"
      ],
      [
        "ma",
        "la"
      ],
      [
        "c",
        "i"
      ],
      [
        "z",
        "e"
      ],
      [
        "n",
        "de"
      ],
      [
        ".",
        "."
      ],
      [
        "T",
        "u"
      ],
      [
        "en",
        "d"
      ],
      [
        "v",
        "er"
      ],
      [
        "ma",
        "is"
      ],
      [
        "a",
        "ve"
      ],
      [
        "ma",
        "ma"
      ],
      [
        "po",
        "na"
      ],
      [
        "ç",
        "a"
      ],
      [
        "j",
        "our"
      ],
      [
        "mo",
        "i"
      ],
      [
        "en",
        "f"
      ],
      [
        "ni",
        "ni"
      ],
      [
        "u",
        "x"
      ],
      [
        "v",
        "ais"
      ],
      [
        "com",
        "me"
      ],
      [
        "m",
        "be"
      ],
      [
        "c",
        "o"
      ],
      [
        "enf",
        "ant"
      ],
      [
        "t",
        "é"
      ],
      [
        "ave",
        "c"
      ],
      [
        "ai",
        "n"
      ],
      [
        "ma",
        "ka"
      ],
      [
        "sa",
        "la"
      ],
      [
        "v",
        "a"
      ],
      [
        "v",
        "oi"
      ],
      [
        "N",
        "a"
      ],
      [
        "L",
        "e"
      ],
      [
        "m",
        "es"
      ],
      [
        "t",
        "re"
      ],
      [
        "bi",
        "en"
      ],
      [
        "mala",
        "mu"
      ],
      [
        "g",
        "r"
      ],
      [
        "to",
        "i"
      ],
      [
        "e",
        "u"
      ],
      [
        "o",
        "ko"
      ],
      [
        "tr",
        "a"
      ],
      [
        "N",
        "e"
      ],
      [
        "t",
        "es"
      ],
      [
        "cou",
        "p"
      ],
      [
        "f",
        "u"
      ],
      [
        "mwa",
        "si"
      ],
      [
        "qu",
        "i"
      ],
      [
        "m",
        "b"
      ],
      [
        "li",
        "nga"
      ],
      [
        "f",
        "i"
      ],
      [
        "v",
        "o"
      ],
      [
        "c",
        "a"
      ],
      [
        "u",
        "e"
      ],
      [
        "su",
        "is"
      ],
      [
        "is",
        "a"
      ],
      [
        "e",
        "za"
      ],
      [
        "c",
        "on"
      ],
      [
        "mais",
        "on"
      ],
      [
        "l",
        "é"
      ],
      [
        "be",
        "au"
      ],
      [
        "en",
        "de"
      ],
      [
        "p",
        "es"
      ],
      [
        "ko",
        "lo"
      ],
      [
        "t",
        "te"
      ],
      [
        "to",
        "ko"
      ],
      [
        "b",
        "on"
      ],
      [
        "r",
        "a"
      ],
      [
        "s",
        "er"
      ],
      [
        "d",
        "a"
      ],
      [
        "ti",
        "on"
      ],
      [
        "r",
        "o"
      ],
      [
        "k",
        "ende"
      ],
      [
        "mo",
        "to"
      ],
      [
        "is",
        "i"
      ],
      [
        "mi",
        "ngi"
      ],
      [
        "e",
        "ur"
      ],
      [
        "na",
        "ko"
      ],
      [
        "a",
        "ko"
      ],
      [
        "t",
        "on"
      ],
      [
        "wa",
        "na"
      ],
      [
        "ch",
        "er"
      ],
      [
        "beau",
        "coup"
      ],
      [
        "f",
        "ai"
      ],
      [
        "r",
        "é"
      ],
      [
        "n",
        "ous"
      ],
      [
        "qu",
        "oi"
      ],
      [
        "E",
        "lle"
      ],
      [
        "f",
        "a"
      ],
      [
        "pr",
        "o"
      ],
      [
        "en",
        "s"
      ],
      [
        "mwa",
        "na"
      ],
      [
        "ba",
        "li"
      ],
      [
        "m",
        "pe"
      ],
      [
        "p",
        "er"
      ],
      [
        "na",
        "za"
      ],
      [
        "l",
        "à"
      ],
      [
        "son",
        "t"
      ],
      [
        "e",
        "x"
      ],
      [
        "è",
        "s"
      ],
      [
        "bis",
        "o"
      ],
      [
        "tr",
        "ain"
      ],
      [
        "na",
        "zo"
      ],
      [
        "g",
        "e"
      ],
      [
        "su",
        "su"
      ],
      [
        "ê",
        "te"
      ],
      [
        "d",
        "é"
      ],
      [
        "ko",
        "ta"
      ],
      [
        "i",
        "ci"
      ],
      [
        "li",
        "t"
      ],
      [
        "so",
        "lo"
      ],
      [
        "po",
        "r"
      ],
      [
        "le",
        "ment"
      ],
      [
        "h",
        "ui"
      ],
      [
        "g",
        "ar"
      ],
      [
        "li",
        "ngi"
      ],
      [
        "..",
        "."
      ],
      [
        "gr",
        "an"
      ],
      [
        "f",
        "e"
      ],
      [
        "r",
        "ai"
      ],
      [
        "li",
        "bo"
      ],
      [
        "so",
        "ki"
      ],
      [
        "r",
        "es"
      ],
      [
        "S",
        "i"
      ],
      [
        "L",
        "a"
      ],
      [
        "ba",
        "la"
      ],
      [
        "O",
        "n"
      ],
      [
        "h",
        "om"
      ],
      [
        "tu",
        "re"
      ],
      [
        "a",
        "wa"
      ],
      [
        "ka",
        "ka"
      ],
      [
        "ma",
        "r"
      ],
      [
        "m",
        "me"
      ],
      [
        "t",
        "ou"
      ],
      [
        "bi",
        "loko"
      ],
      [
        "o",
        "za"
      ],
      [
        "n",
        "ze"
      ],
      [
        "M",
        "a"
      ],
      [
        "la",
        "mba"
      ],
      [
        "voi",
        "r"
      ],
      [
        "pes",
        "a"
      ],
      [
        "ng",
        "u"
      ],
      [
        "si",
        "on"
      ],
      [
        "e",
        "ko"
      ],
      [
        "le",
        "lo"
      ],
      [
        "i",
        "t"
      ],
      [
        "a",
        "t"
      ],
      [
        "pr",
        "es"
      ],
      [
        "ch",
        "é"
      ],
      [
        "ui",
        "re"
      ],
      [
        "jour",
        "d"
      ],
      [
        "maka",
        "si"
      ],
      [
        "o",
        "s"
      ],
      [
        "ya",
        "ngo"
      ],
      [
        "p",
        "u"
      ],
      [
        "n",
        "z"
      ],
      [
        "t",
        "s"
      ],
      [
        "é",
        "t"
      ],
      [
        "f",
        "ait"
      ],
      [
        "d",
        "uire"
      ],
      [
        "nda",
        "ko"
      ],
      [
        "d",
        "on"
      ],
      [
        "me",
        "la"
      ],
      [
        "e",
        "bo"
      ],
      [
        "mbo",
        "ngo"
      ],
      [
        "h",
        "a"
      ],
      [
        "so",
        "r"
      ],
      [
        "ex",
        "pres"
      ],
      [
        "expres",
        "sion"
      ],
      [
        "P",
        "ro"
      ],
      [
        "pa",
        "pa"
      ],
      [
        "u",
        "s"
      ],
      [
        "na",
        "n"
      ],
      [
        "bo",
        "ye"
      ],
      [
        "a",
        "lement"
      ],
      [
        "ter",
        "alement"
      ],
      [
        "ver",
        "be"
      ],
      [
        "tra",
        "duire"
      ],
      [
        "lit",
        "teralement"
      ],
      [
        "Pro",
        "verbe"
      ],
      [
        "f",
        "or"
      ],
      [
        "l",
        "è"
      ],
      [
        "v",
        "en"
      ],
      [
        "mo",
        "na"
      ],
      [
        "ma",
        "ng"
      ],
      [
        "zala",
        "ki"
      ],
      [
        "yo",
        "ka"
      ],
      [
        "D",
        "i"
      ],
      [
        "mo",
        "tu"
      ],
      [
        "m",
        "é"
      ],
      [
        "ma",
        "in"
      ],
      [
        "m",
        "bi"
      ],
      [
        "ko",
        "la"
      ],
      [
        "en",
        "e"
      ],
      [
        "fe",
        "mme"
      ],
      [
        "m",
        "en"
      ],
      [
        "e",
        "lle"
      ],
      [
        "g",
        "ent"
      ],
      [
        "a",
        "za"
      ],
      [
        "li",
        "a"
      ],
      [
        "mo",
        "bali"
      ],
      [
        "nd",
        "o"
      ],
      [
        "ar",
        "gent"
      ],
      [
        "moko",
        "lo"
      ],
      [
        "mo",
        "yi"
      ],
      [
        "Di",
        "eu"
      ],
      [
        "n",
        "é"
      ],
      [
        "v",
        "rai"
      ],
      [
        "be",
        "le"
      ],
      [
        "a",
        "v"
      ],
      [
        "ma",
        "ri"
      ],
      [
        "tr",
        "ès"
      ],
      [
        "zala",
        "ka"
      ],
      [
        "ce",
        "tte"
      ],
      [
        "i",
        "r"
      ],
      [
        "que",
        "l"
      ],
      [
        "ti",
        "ka"
      ],
      [
        "fai",
        "re"
      ],
      [
        "ki",
        "toko"
      ],
      [
        "ve",
        "ux"
      ],
      [
        "mu",
        "tu"
      ],
      [
        "enfant",
        "s"
      ],
      [
        "li",
        "ka"
      ],
      [
        "ba",
        "na"
      ],
      [
        "on",
        "s"
      ],
      [
        "a",
        "m"
      ],
      [
        "a",
        "che"
      ],
      [
        "f",
        "r"
      ],
      [
        "gar",
        "de"
      ],
      [
        "vi",
        "e"
      ],
      [
        "su",
        "r"
      ],
      [
        "s",
        "é"
      ],
      [
        "ent",
        "re"
      ],
      [
        "su",
        "ka"
      ],
      [
        "mama",
        "n"
      ],
      [
        "w",
        "e"
      ],
      [
        "on",
        "t"
      ],
      [
        "s",
        "an"
      ],
      [
        "M",
        "on"
      ],
      [
        "za",
        "mbe"
      ],
      [
        "ta",
        "ta"
      ],
      [
        "i",
        "ka"
      ],
      [
        "ba",
        "nda"
      ],
      [
        "ment",
        "s"
      ],
      [
        "ê",
        "me"
      ],
      [
        "pr",
        "é"
      ],
      [
        "l",
        "ui"
      ],
      [
        "ai",
        "me"
      ],
      [
        "bo",
        "ko"
      ],
      [
        "o",
        "is"
      ],
      [
        "p",
        "s"
      ],
      [
        "v",
        "ous"
      ],
      [
        "ye",
        "ba"
      ],
      [
        "ba",
        "le"
      ],
      [
        "L",
        "es"
      ],
      [
        "b",
        "ou"
      ],
      [
        "p",
        "lu"
      ],
      [
        "par",
        "ce"
      ],
      [
        "0",
        "0"
      ],
      [
        "P",
        "our"
      ],
      [
        "mo",
        "r"
      ],
      [
        "pe",
        "ti"
      ],
      [
        "a",
        "f"
      ],
      [
        "a",
        "ta"
      ],
      [
        "ka",
        "ti"
      ],
      [
        "au",
        "jourd"
      ],
      [
        "a",
        "l"
      ],
      [
        "be",
        "ta"
      ],
      [
        ")",
        "."
      ],
      [
        "m",
        "bu"
      ],
      [
        "n",
        "om"
      ],
      [
        "la",
        "n"
      ],
      [
        "ba",
        "tu"
      ],
      [
        "ebo",
        "ngi"
      ],
      [
        "au",
        "s"
      ],
      [
        "ke",
        "la"
      ],
      [
        "mi",
        "n"
      ],
      [
        "plu",
        "s"
      ],
      [
        "z",
        "u"
      ],
      [
        "mbo",
        "la"
      ],
      [
        "c",
        "u"
      ],
      [
        "to",
        "mb"
      ],
      [
        "ti",
        "r"
      ],
      [
        "so",
        "eur"
      ],
      [
        "b",
        "le"
      ],
      [
        "bi",
        "no"
      ],
      [
        "au",
        "t"
      ],
      [
        "mon",
        "de"
      ],
      [
        "en",
        "co"
      ],
      [
        "ui",
        "t"
      ],
      [
        "mon",
        "ene"
      ],
      [
        "enco",
        "re"
      ],
      [
        "a",
        "zali"
      ],
      [
        "t",
        "en"
      ],
      [
        "ko",
        "mbo"
      ],
      [
        "mar",
        "ché"
      ],
      [
        "e",
        "le"
      ],
      [
        "m",
        "ême"
      ],
      [
        "ma",
        "n"
      ],
      [
        "ko",
        "sala"
      ],
      [
        "e",
        "au"
      ],
      [
        "o",
        "so"
      ],
      [
        "C",
        "e"
      ],
      [
        "p",
        "en"
      ],
      [
        "v",
        "as"
      ],
      [
        "nde",
        "nge"
      ],
      [
        "de",
        "r"
      ],
      [
        "ko",
        "ko"
      ],
      [
        "libo",
        "so"
      ],
      [
        "ma",
        "yi"
      ],
      [
        "mon",
        "i"
      ],
      [
        "lo",
        "bi"
      ],
      [
        "ha",
        "bi"
      ],
      [
        "aus",
        "si"
      ],
      [
        "f",
        "ais"
      ],
      [
        "s",
        "es"
      ],
      [
        "v",
        "ai"
      ],
      [
        "ko",
        "le"
      ],
      [
        "linga",
        "ka"
      ],
      [
        "loko",
        "la"
      ],
      [
        "per",
        "son"
      ],
      [
        "Pour",
        "quoi"
      ],
      [
        "N",
        "zambe"
      ],
      [
        "a",
        "ba"
      ],
      [
        "e",
        "pa"
      ],
      [
        "epa",
        "yi"
      ],
      [
        "m",
        "ère"
      ],
      [
        "hom",
        "me"
      ],
      [
        "n",
        "ta"
      ],
      [
        "te",
        "la"
      ],
      [
        "le",
        "ur"
      ],
      [
        "ku",
        "ta"
      ],
      [
        "bon",
        "i"
      ],
      [
        "por",
        "te"
      ],
      [
        "m",
        "is"
      ],
      [
        "n",
        "zo"
      ],
      [
        "che",
        "z"
      ],
      [
        "M",
        "o"
      ],
      [
        "f",
        "aut"
      ],
      [
        "nze",
        "la"
      ],
      [
        "p",
        "ère"
      ],
      [
        "v",
        "re"
      ],
      [
        "Q",
        "ue"
      ],
      [
        "n",
        "er"
      ],
      [
        "li",
        "susu"
      ],
      [
        "mo",
        "susu"
      ],
      [
        "gran",
        "d"
      ],
      [
        "p",
        "on"
      ],
      [
        "tou",
        "t"
      ],
      [
        "j",
        "us"
      ],
      [
        "ka",
        "si"
      ],
      [
        "ko",
        "bo"
      ],
      [
        "pa",
        "mba"
      ],
      [
        "nda",
        "ku"
      ],
      [
        "a",
        "mi"
      ],
      [
        "b",
        "lè"
      ],
      [
        "o",
        "ù"
      ],
      [
        "la",
        "is"
      ],
      [
        "bi",
        "ma"
      ],
      [
        "as",
        "se"
      ],
      [
        "bis",
        "a"
      ],
      [
        "pro",
        "blè"
      ],
      [
        "T",
        "a"
      ],
      [
        "j",
        "o"
      ],
      [
        "tomb",
        "é"
      ],
      [
        "v",
        "ête"
      ],
      [
        "na",
        "ni"
      ],
      [
        "ar",
        "ri"
      ],
      [
        "voi",
        "ture"
      ],
      [
        "a",
        "p"
      ],
      [
        "a",
        "zo"
      ],
      [
        "g",
        "a"
      ],
      [
        "r",
        "oi"
      ],
      [
        "an",
        "da"
      ],
      [
        "bi",
        "lamba"
      ],
      [
        "mang",
        "er"
      ],
      [
        "vrai",
        "ment"
      ],
      [
        "C",
        "et"
      ],
      [
        "S",
        "a"
      ],
      [
        "re",
        "garde"
      ],
      [
        "ni",
        "oso"
      ],
      [
        "kela",
        "si"
      ],
      [
        "d",
        "is"
      ],
      [
        "ko",
        "ka"
      ],
      [
        "ma",
        "be"
      ],
      [
        "mi",
        "bale"
      ],
      [
        "mba",
        "la"
      ],
      [
        "tra",
        "vai"
      ],
      [
        "pen",
        "za"
      ],
      [
        "vête",
        "ments"
      ],
      [
        "ba",
        "ngo"
      ],
      [
        "c",
        "es"
      ],
      [
        "ka",
        "nda"
      ],
      [
        "re",
        "r"
      ],
      [
        "qu",
        "es"
      ],
      [
        "nde",
        "ko"
      ],
      [
        "k",
        "isi"
      ],
      [
        "o",
        "ki"
      ],
      [
        "so",
        "m"
      ],
      [
        "B",
        "a"
      ],
      [
        "ba",
        "t"
      ],
      [
        "mor",
        "t"
      ],
      [
        "C",
        "om"
      ],
      [
        "d",
        "ent"
      ],
      [
        "d",
        "or"
      ],
      [
        "fu",
        "ta"
      ],
      [
        "i",
        "lle"
      ],
      [
        "n",
        "es"
      ],
      [
        "p",
        "é"
      ],
      [
        "li",
        "e"
      ],
      [
        "pr",
        "end"
      ],
      [
        "nz",
        "i"
      ],
      [
        "moni",
        "nga"
      ],
      [
        "m",
        "po"
      ],
      [
        "p",
        "h"
      ],
      [
        "na",
        "lingi"
      ],
      [
        "te",
        "ma"
      ],
      [
        "ba",
        "ni"
      ],
      [
        "pas",
        "i"
      ],
      [
        "N",
        "ous"
      ],
      [
        "e",
        "loko"
      ],
      [
        "k",
        "we"
      ],
      [
        "m",
        "er"
      ],
      [
        "n",
        "our"
      ],
      [
        "ta",
        "la"
      ],
      [
        "ti",
        "n"
      ],
      [
        "so",
        "mba"
      ],
      [
        "bis",
        "i"
      ],
      [
        "nan",
        "u"
      ],
      [
        "nour",
        "ri"
      ],
      [
        "ba",
        "s"
      ],
      [
        "lo",
        "ba"
      ],
      [
        "be",
        "la"
      ],
      [
        "kota",
        "la"
      ],
      [
        "gran",
        "de"
      ],
      [
        "i",
        "g"
      ],
      [
        "fi",
        "lle"
      ],
      [
        "c",
        "or"
      ],
      [
        "u",
        "t"
      ],
      [
        "ko",
        "ya"
      ],
      [
        "ma",
        "l"
      ],
      [
        "di",
        "ca"
      ],
      [
        "am",
        "our"
      ],
      [
        "o",
        "zali"
      ],
      [
        "be",
        "lle"
      ],
      [
        "di",
        "t"
      ],
      [
        "linga",
        "la"
      ],
      [
        "nourri",
        "ture"
      ],
      [
        "li",
        "kolo"
      ],
      [
        "com",
        "men"
      ],
      [
        "ch",
        "o"
      ],
      [
        "ét",
        "ait"
      ],
      [
        "ten",
        "tion"
      ],
      [
        "som",
        "mes"
      ],
      [
        "g",
        "ens"
      ],
      [
        "i",
        "re"
      ],
      [
        "par",
        "le"
      ],
      [
        "quel",
        "qu"
      ],
      [
        "es",
        "ika"
      ],
      [
        "ma",
        "u"
      ],
      [
        "S",
        "oki"
      ],
      [
        "p",
        "ou"
      ],
      [
        "ko",
        "ba"
      ],
      [
        "mbo",
        "ka"
      ],
      [
        "ba",
        "to"
      ],
      [
        "de",
        "ux"
      ],
      [
        "so",
        "it"
      ],
      [
        "pi",
        "ta"
      ],
      [
        "mb",
        "wa"
      ],
      [
        "sor",
        "tir"
      ],
      [
        "e",
        "bele"
      ],
      [
        "par",
        "ti"
      ],
      [
        "don",
        "ne"
      ],
      [
        "bo",
        "li"
      ],
      [
        "to",
        "zali"
      ],
      [
        "po",
        "sa"
      ],
      [
        "m",
        "isa"
      ],
      [
        "s",
        "ou"
      ],
      [
        "peti",
        "t"
      ],
      [
        "nzo",
        "to"
      ],
      [
        "fa",
        "mi"
      ],
      [
        "L",
        "i"
      ],
      [
        "M",
        "oi"
      ],
      [
        "d",
        "o"
      ],
      [
        "p",
        "ai"
      ],
      [
        "ma",
        "nge"
      ],
      [
        "lu",
        "ka"
      ],
      [
        "ven",
        "u"
      ],
      [
        "lika",
        "mbo"
      ],
      [
        "person",
        "ne"
      ],
      [
        "Q",
        "u"
      ],
      [
        "n",
        "za"
      ],
      [
        "w",
        "i"
      ],
      [
        "é",
        "cou"
      ],
      [
        "mo",
        "tema"
      ],
      [
        "roi",
        "t"
      ],
      [
        "ye",
        "bi"
      ],
      [
        "ku",
        "fa"
      ],
      [
        "nan",
        "t"
      ],
      [
        "f",
        "ois"
      ],
      [
        "ko",
        "mela"
      ],
      [
        "te",
        "ur"
      ],
      [
        "si",
        "ka"
      ],
      [
        "ch",
        "i"
      ],
      [
        "motu",
        "ka"
      ],
      [
        "E",
        "s"
      ],
      [
        "b",
        "lan"
      ],
      [
        "is",
        "son"
      ],
      [
        "maka",
        "mbo"
      ],
      [
        "hom",
        "bo"
      ],
      [
        "cor",
        "ps"
      ],
      [
        "fami",
        "lle"
      ],
      [
        "a",
        "ge"
      ],
      [
        "in",
        "s"
      ],
      [
        "com",
        "ment"
      ],
      [
        "problè",
        "me"
      ],
      [
        "li",
        "ki"
      ],
      [
        "wa",
        "pi"
      ],
      [
        "pi",
        "li"
      ],
      [
        "ache",
        "ter"
      ],
      [
        "zu",
        "a"
      ],
      [
        "D",
        "ans"
      ],
      [
        "mbo",
        "te"
      ],
      [
        "ri",
        "en"
      ],
      [
        "ê",
        "t"
      ],
      [
        "pr",
        "ès"
      ],
      [
        "ze",
        "mi"
      ],
      [
        "mau",
        "vais"
      ],
      [
        "T",
        "oi"
      ],
      [
        "ch",
        "os"
      ],
      [
        "au",
        "tre"
      ],
      [
        "par",
        "s"
      ],
      [
        "chos",
        "es"
      ],
      [
        "i",
        "er"
      ],
      [
        "r",
        "is"
      ],
      [
        "te",
        "nant"
      ],
      [
        "le",
        "ki"
      ],
      [
        "li",
        "li"
      ],
      [
        "ou",
        "ve"
      ],
      [
        "ke",
        "yi"
      ],
      [
        "vi",
        "ens"
      ],
      [
        "mé",
        "dica"
      ],
      [
        "av",
        "ait"
      ],
      [
        "le",
        "ma"
      ],
      [
        "gr",
        "os"
      ],
      [
        "ts",
        "hombo"
      ],
      [
        "I",
        "D"
      ],
      [
        "ko",
        "yo"
      ],
      [
        "le",
        "u"
      ],
      [
        "co",
        "eur"
      ],
      [
        "at",
        "tention"
      ],
      [
        "a",
        "près"
      ],
      [
        "mon",
        "oko"
      ],
      [
        "il",
        "s"
      ],
      [
        "ze",
        "la"
      ],
      [
        "fai",
        "res"
      ],
      [
        "af",
        "faires"
      ],
      [
        "travai",
        "l"
      ],
      [
        "a",
        "na"
      ],
      [
        "k",
        "isa"
      ],
      [
        "n",
        "oi"
      ],
      [
        "z",
        "wa"
      ],
      [
        "ma",
        "i"
      ],
      [
        "an",
        "ce"
      ],
      [
        "sa",
        "li"
      ],
      [
        "ke",
        "le"
      ],
      [
        "con",
        "na"
      ],
      [
        "nze",
        "te"
      ],
      [
        "Com",
        "ment"
      ],
      [
        "cho",
        "se"
      ],
      [
        "T",
        "on"
      ],
      [
        "a",
        "c"
      ],
      [
        "ko",
        "lia"
      ],
      [
        "te",
        "m"
      ],
      [
        "on",
        "c"
      ],
      [
        "ch",
        "è"
      ],
      [
        "pe",
        "ux"
      ],
      [
        "c",
        "as"
      ],
      [
        "z",
        "i"
      ],
      [
        "la",
        "ng"
      ],
      [
        "té",
        "lé"
      ],
      [
        "pes",
        "i"
      ],
      [
        "der",
        "ni"
      ],
      [
        "c",
        "au"
      ],
      [
        "e",
        "ta"
      ],
      [
        "e",
        "zo"
      ],
      [
        "w",
        "en"
      ],
      [
        "ko",
        "yoka"
      ],
      [
        "ko",
        "beta"
      ],
      [
        "en",
        "ce"
      ],
      [
        "ta",
        "ngo"
      ],
      [
        "si",
        "ma"
      ],
      [
        "wen",
        "ze"
      ],
      [
        "D",
        "jo"
      ],
      [
        "b",
        "r"
      ],
      [
        "on",
        "so"
      ],
      [
        "mo",
        "bi"
      ],
      [
        "su",
        "s"
      ],
      [
        "se",
        "u"
      ],
      [
        "mobi",
        "mba"
      ],
      [
        "F",
        "ais"
      ],
      [
        "b",
        "re"
      ],
      [
        "f",
        "f"
      ],
      [
        "u",
        "ti"
      ],
      [
        "ma",
        "kolo"
      ],
      [
        "bo",
        "ngo"
      ],
      [
        "an",
        "i"
      ],
      [
        "si",
        "koyo"
      ],
      [
        "su",
        "c"
      ],
      [
        "sa",
        "nga"
      ],
      [
        "lle",
        "r"
      ],
      [
        "un",
        "da"
      ],
      [
        "mba",
        "ka"
      ],
      [
        "mala",
        "di"
      ],
      [
        "end",
        "roit"
      ],
      [
        "ét",
        "ais"
      ],
      [
        "moyi",
        "bi"
      ],
      [
        "yeba",
        "ki"
      ],
      [
        "jus",
        "te"
      ],
      [
        "a",
        "ka"
      ],
      [
        "a",
        "zalaka"
      ],
      [
        "o",
        "lingi"
      ],
      [
        "te",
        "lema"
      ],
      [
        "ke",
        "i"
      ],
      [
        "pu",
        "is"
      ],
      [
        "for",
        "t"
      ],
      [
        "A",
        "u"
      ],
      [
        "o",
        "ngo"
      ],
      [
        "s",
        "ent"
      ],
      [
        "ng",
        "isa"
      ],
      [
        "ma",
        "nde"
      ],
      [
        "ta",
        "n"
      ],
      [
        "me",
        "t"
      ],
      [
        "ui",
        "l"
      ],
      [
        "ku",
        "na"
      ],
      [
        "or",
        "s"
      ],
      [
        "ra",
        "p"
      ],
      [
        "c",
        "é"
      ],
      [
        "d",
        "s"
      ],
      [
        "boli",
        "ngo"
      ],
      [
        "J",
        "é"
      ],
      [
        "U",
        "n"
      ],
      [
        "r",
        "s"
      ],
      [
        "s",
        "ais"
      ],
      [
        "au",
        "tr"
      ],
      [
        "il",
        "les"
      ],
      [
        "Il",
        "s"
      ],
      [
        "vi",
        "ent"
      ],
      [
        "for",
        "êt"
      ],
      [
        "suka",
        "li"
      ],
      [
        "boko",
        "no"
      ],
      [
        "Cet",
        "te"
      ],
      [
        "e",
        "la"
      ],
      [
        "n",
        "y"
      ],
      [
        "ka",
        "nga"
      ],
      [
        "an",
        "d"
      ],
      [
        "in",
        "te"
      ],
      [
        "no",
        "tre"
      ],
      [
        "vo",
        "leur"
      ],
      [
        "mbu",
        "la"
      ],
      [
        "ny",
        "onso"
      ],
      [
        "f",
        "anda"
      ],
      [
        "p",
        "ain"
      ],
      [
        "en",
        "ti"
      ],
      [
        "li",
        "wa"
      ],
      [
        "ba",
        "zali"
      ],
      [
        "ce",
        "t"
      ],
      [
        "mari",
        "age"
      ],
      [
        "bou",
        "che"
      ],
      [
        "kwe",
        "yi"
      ],
      [
        "f",
        "rap"
      ],
      [
        "m",
        "bisi"
      ],
      [
        "r",
        "ais"
      ],
      [
        "ko",
        "ki"
      ],
      [
        "la",
        "yi"
      ],
      [
        "pe",
        "ur"
      ],
      [
        "g",
        "u"
      ],
      [
        "v",
        "ent"
      ],
      [
        "es",
        "u"
      ],
      [
        "ma",
        "ki"
      ],
      [
        "mo",
        "ki"
      ],
      [
        "re",
        "t"
      ],
      [
        "au",
        "x"
      ],
      [
        "nga",
        "nga"
      ],
      [
        "libo",
        "ta"
      ],
      [
        "S",
        "ID"
      ],
      [
        "f",
        "o"
      ],
      [
        "n",
        "ouve"
      ],
      [
        "p",
        "re"
      ],
      [
        "na",
        "zali"
      ],
      [
        "ma",
        "futa"
      ],
      [
        "zo",
        "nga"
      ],
      [
        "nazo",
        "kende"
      ],
      [
        "SID",
        "A"
      ],
      [
        "t",
        "end"
      ],
      [
        "na",
        "lingaka"
      ],
      [
        "ma",
        "bele"
      ],
      [
        "ma",
        "sanga"
      ],
      [
        "pa",
        "y"
      ],
      [
        "mi",
        "no"
      ],
      [
        "main",
        "tenant"
      ],
      [
        "cau",
        "se"
      ],
      [
        "g",
        "ue"
      ],
      [
        "o",
        "de"
      ],
      [
        "ko",
        "sa"
      ],
      [
        "ng",
        "om"
      ],
      [
        "mo",
        "sala"
      ],
      [
        "za",
        "mba"
      ],
      [
        "ch",
        "an"
      ],
      [
        "mi",
        "a"
      ],
      [
        "écou",
        "te"
      ],
      [
        "tem",
        "ps"
      ],
      [
        "j",
        "a"
      ],
      [
        "ng",
        "isi"
      ],
      [
        "li",
        "bala"
      ],
      [
        "mo",
        "be"
      ],
      [
        "ar",
        "i"
      ],
      [
        "ré",
        "pon"
      ],
      [
        "kole",
        "ka"
      ],
      [
        "Jé",
        "sus"
      ],
      [
        "k",
        "wa"
      ],
      [
        "la",
        "ki"
      ],
      [
        "nd",
        "u"
      ],
      [
        "ver",
        "s"
      ],
      [
        "jour",
        "s"
      ],
      [
        "fr",
        "ère"
      ],
      [
        "arri",
        "ve"
      ],
      [
        "bani",
        "nga"
      ],
      [
        "B",
        "o"
      ],
      [
        "o",
        "zalaki"
      ],
      [
        "ko",
        "tu"
      ],
      [
        "le",
        "r"
      ],
      [
        "ya",
        "ka"
      ],
      [
        "pa",
        "ngo"
      ],
      [
        "za",
        "ndo"
      ],
      [
        "bo",
        "ti"
      ],
      [
        "ar",
        "r"
      ],
      [
        "che",
        "min"
      ],
      [
        "eu",
        "f"
      ],
      [
        "vo",
        "is"
      ],
      [
        "parce",
        "lle"
      ],
      [
        "Sa",
        "lu"
      ],
      [
        "prend",
        "re"
      ],
      [
        "Au",
        "jourd"
      ],
      [
        "C",
        "h"
      ],
      [
        "li",
        "ya"
      ],
      [
        "li",
        "sa"
      ],
      [
        "ache",
        "té"
      ],
      [
        "K",
        "o"
      ],
      [
        "a",
        "ller"
      ],
      [
        "c",
        "er"
      ],
      [
        "d",
        "ou"
      ],
      [
        "n",
        "on"
      ],
      [
        "é",
        "co"
      ],
      [
        "ko",
        "pesa"
      ],
      [
        "la",
        "it"
      ],
      [
        "de",
        "mande"
      ],
      [
        "bo",
        "moyi"
      ],
      [
        "ke",
        "ba"
      ],
      [
        "cher",
        "cher"
      ],
      [
        "ele",
        "ki"
      ],
      [
        "éco",
        "le"
      ],
      [
        "D",
        "e"
      ],
      [
        "é",
        "tu"
      ],
      [
        "la",
        "r"
      ],
      [
        "bo",
        "ire"
      ],
      [
        "pe",
        "la"
      ],
      [
        "pi",
        "e"
      ],
      [
        "dent",
        "s"
      ],
      [
        "suc",
        "ré"
      ],
      [
        "maladi",
        "e"
      ],
      [
        "V",
        "a"
      ],
      [
        "ko",
        "su"
      ],
      [
        "en",
        "vie"
      ],
      [
        "ou",
        "b"
      ],
      [
        "ch",
        "es"
      ],
      [
        "at",
        "tend"
      ],
      [
        "met",
        "tre"
      ],
      [
        "5",
        "00"
      ],
      [
        "e",
        "zalaka"
      ],
      [
        "o",
        "t"
      ]
    ]
  }
}